{
    "merges": [
        [
            "e",
            "</w>"
        ],
        [
            "t",
            "h"
        ],
        [
            ",",
            "</w>"
        ],
        [
            "t",
            "</w>"
        ],
        [
            "s",
            "</w>"
        ],
        [
            "d",
            "</w>"
        ],
        [
            "o",
            "u"
        ],
        [
            "e",
            "r"
        ],
        [
            "y",
            "</w>"
        ],
        [
            "i",
            "n"
        ],
        [
            ":",
            "</w>"
        ],
        [
            "a",
            "n"
        ],
        [
            "o",
            "r"
        ],
        [
            "o",
            "</w>"
        ],
        [
            ".",
            "</w>"
        ],
        [
            "e",
            "n"
        ],
        [
            "a",
            "r"
        ],
        [
            "o",
            "n"
        ],
        [
            "l",
            "l"
        ],
        [
            "h",
            "a"
        ],
        [
            "th",
            "e</w>"
        ],
        [
            "i",
            "s</w>"
        ],
        [
            "f",
            "</w>"
        ],
        [
            "e",
            "s"
        ],
        [
            "y",
            "ou"
        ],
        [
            "I",
            "</w>"
        ],
        [
            "ll",
            "</w>"
        ],
        [
            "t",
            "o</w>"
        ],
        [
            "an",
            "d</w>"
        ],
        [
            "o",
            "w"
        ],
        [
            "e",
            "a"
        ],
        [
            "e",
            ",</w>"
        ],
        [
            "r",
            "</w>"
        ],
        [
            "in",
            "g"
        ],
        [
            "w",
            "i"
        ],
        [
            "o",
            "m"
        ],
        [
            ";",
            "</w>"
        ],
        [
            "er",
            "</w>"
        ],
        [
            "s",
            "t"
        ],
        [
            "o",
            "f</w>"
        ],
        [
            "th",
            "</w>"
        ],
        [
            "h",
            "i"
        ],
        [
            "or",
            "</w>"
        ],
        [
            "v",
            "e</w>"
        ],
        [
            "a",
            "</w>"
        ],
        [
            "n",
            "o"
        ],
        [
            "c",
            "h"
        ],
        [
            "m",
            "y</w>"
        ],
        [
            "in",
            "</w>"
        ],
        [
            "s",
            "e"
        ],
        [
            "h",
            "e</w>"
        ],
        [
            "?",
            "</w>"
        ],
        [
            "l",
            "i"
        ],
        [
            "a",
            "t</w>"
        ],
        [
            "ing",
            "</w>"
        ],
        [
            "th",
            "e"
        ],
        [
            "r",
            "e"
        ],
        [
            "s",
            "t</w>"
        ],
        [
            "you",
            "</w>"
        ],
        [
            "!",
            "</w>"
        ],
        [
            "A",
            "n"
        ],
        [
            "e",
            "ar"
        ],
        [
            "t",
            "i"
        ],
        [
            "o",
            "o"
        ],
        [
            "en",
            "</w>"
        ],
        [
            "d",
            ",</w>"
        ],
        [
            "g",
            "h"
        ],
        [
            "r",
            "i"
        ],
        [
            "m",
            "a"
        ],
        [
            "s",
            ",</w>"
        ],
        [
            "e",
            "d</w>"
        ],
        [
            "r",
            "a"
        ],
        [
            "no",
            "t</w>"
        ],
        [
            "th",
            "at</w>"
        ],
        [
            "m",
            "</w>"
        ],
        [
            "An",
            "d</w>"
        ],
        [
            "'",
            "s</w>"
        ],
        [
            "on",
            "</w>"
        ],
        [
            "t",
            ",</w>"
        ],
        [
            "m",
            "e</w>"
        ],
        [
            "l",
            "e"
        ],
        [
            "y",
            ",</w>"
        ],
        [
            "l",
            "d</w>"
        ],
        [
            "ow",
            "</w>"
        ],
        [
            "ou",
            "</w>"
        ],
        [
            "h",
            "is</w>"
        ],
        [
            "a",
            "s</w>"
        ],
        [
            "l",
            "a"
        ],
        [
            "i",
            "r"
        ],
        [
            "u",
            "t</w>"
        ],
        [
            "ha",
            "t</w>"
        ],
        [
            "wi",
            "th</w>"
        ],
        [
            "e",
            "s</w>"
        ],
        [
            "u",
            "r"
        ],
        [
            "s",
            "h"
        ],
        [
            "b",
            "e</w>"
        ],
        [
            "an",
            "</w>"
        ],
        [
            "you",
            "r</w>"
        ],
        [
            "b",
            "e"
        ],
        [
            "O",
            ":</w>"
        ],
        [
            "k",
            "</w>"
        ],
        [
            "r",
            "o"
        ],
        [
            "i",
            "t</w>"
        ],
        [
            "d",
            "i"
        ],
        [
            "er",
            "e</w>"
        ],
        [
            "ch",
            "</w>"
        ],
        [
            "k",
            "e</w>"
        ],
        [
            "f",
            "or</w>"
        ],
        [
            "u",
            "n"
        ],
        [
            "E",
            "N"
        ],
        [
            "s",
            "e</w>"
        ],
        [
            "e",
            ".</w>"
        ],
        [
            "I",
            "N"
        ],
        [
            "f",
            "or"
        ],
        [
            "f",
            "a"
        ],
        [
            "ha",
            "ve</w>"
        ],
        [
            "l",
            "</w>"
        ],
        [
            "c",
            "e</w>"
        ],
        [
            "e",
            "e"
        ],
        [
            "S",
            ":</w>"
        ],
        [
            "T",
            "h"
        ],
        [
            "i",
            "t"
        ],
        [
            "s",
            "a"
        ],
        [
            "c",
            "om"
        ],
        [
            "ou",
            "r</w>"
        ],
        [
            "a",
            "t"
        ],
        [
            "th",
            "is</w>"
        ],
        [
            "A",
            "R"
        ],
        [
            "'",
            "d</w>"
        ],
        [
            "n",
            "</w>"
        ],
        [
            "l",
            "e</w>"
        ],
        [
            "th",
            "ou</w>"
        ],
        [
            "l",
            "o"
        ],
        [
            "th",
            "er"
        ],
        [
            "w",
            "h"
        ],
        [
            "t",
            "a"
        ],
        [
            "I",
            "O:</w>"
        ],
        [
            "s",
            "ha"
        ],
        [
            "th",
            "y</w>"
        ],
        [
            "s",
            "p"
        ],
        [
            "ou",
            "ld</w>"
        ],
        [
            "l",
            "y</w>"
        ],
        [
            "r",
            "ea"
        ],
        [
            "s",
            "u"
        ],
        [
            "en",
            "t"
        ],
        [
            "W",
            "h"
        ],
        [
            "U",
            "S:</w>"
        ],
        [
            "wi",
            "ll</w>"
        ],
        [
            "b",
            "ut</w>"
        ],
        [
            "m",
            "e"
        ],
        [
            "T",
            "he</w>"
        ],
        [
            "om",
            "</w>"
        ],
        [
            "c",
            "on"
        ],
        [
            "c",
            "a"
        ],
        [
            "ar",
            "e</w>"
        ],
        [
            "r",
            "u"
        ],
        [
            "s",
            "i"
        ],
        [
            "T",
            "o</w>"
        ],
        [
            "w",
            "e"
        ],
        [
            "w",
            "or"
        ],
        [
            "n",
            "e"
        ],
        [
            "oo",
            "d</w>"
        ],
        [
            "i",
            "r</w>"
        ],
        [
            "d",
            "e"
        ],
        [
            "w",
            "a"
        ],
        [
            "th",
            "er</w>"
        ],
        [
            "d",
            "a"
        ],
        [
            "m",
            "or"
        ],
        [
            "b",
            "y</w>"
        ],
        [
            "m",
            "i"
        ],
        [
            "o",
            "l"
        ],
        [
            "c",
            "e"
        ],
        [
            "U",
            "C"
        ],
        [
            "p",
            "</w>"
        ],
        [
            "a",
            "ll</w>"
        ],
        [
            "s",
            ".</w>"
        ],
        [
            "sha",
            "ll</w>"
        ],
        [
            "d",
            ".</w>"
        ],
        [
            "v",
            "er"
        ],
        [
            "hi",
            "m</w>"
        ],
        [
            "ear",
            "</w>"
        ],
        [
            "s",
            "o</w>"
        ],
        [
            "IN",
            "G"
        ],
        [
            "m",
            "an"
        ],
        [
            "ou",
            "n"
        ],
        [
            "m",
            "u"
        ],
        [
            "A",
            "N"
        ],
        [
            "d",
            "s</w>"
        ],
        [
            "c",
            "k"
        ],
        [
            "l",
            "or"
        ],
        [
            "E",
            "R"
        ],
        [
            "O",
            "R"
        ],
        [
            "w",
            "e</w>"
        ],
        [
            "r",
            "es"
        ],
        [
            "m",
            "o"
        ],
        [
            "t",
            "er"
        ],
        [
            "e",
            "t</w>"
        ],
        [
            "gh",
            "t</w>"
        ],
        [
            "se",
            "l"
        ],
        [
            "E",
            "T"
        ],
        [
            "r",
            "om</w>"
        ],
        [
            "d",
            "o</w>"
        ],
        [
            "o",
            ",</w>"
        ],
        [
            "T",
            "hat</w>"
        ],
        [
            "p",
            "o"
        ],
        [
            "h",
            "er</w>"
        ],
        [
            "q",
            "u"
        ],
        [
            "hi",
            "m"
        ],
        [
            "k",
            "n"
        ],
        [
            "v",
            "i"
        ],
        [
            "'",
            "</w>"
        ],
        [
            "t",
            "e"
        ],
        [
            "p",
            "a"
        ],
        [
            "n",
            "o</w>"
        ],
        [
            "ou",
            "r"
        ],
        [
            "'",
            "ll</w>"
        ],
        [
            "b",
            "l"
        ],
        [
            "A",
            ":</w>"
        ],
        [
            "es",
            "t</w>"
        ],
        [
            "w",
            "hat</w>"
        ],
        [
            "g",
            "a"
        ],
        [
            "K",
            "ING"
        ],
        [
            "y",
            ".</w>"
        ],
        [
            "on",
            "e</w>"
        ],
        [
            "t",
            "o"
        ],
        [
            "hi",
            "ch</w>"
        ],
        [
            "d",
            "o"
        ],
        [
            "es",
            "s</w>"
        ],
        [
            "c",
            "i"
        ],
        [
            "e",
            "l"
        ],
        [
            "B",
            "ut</w>"
        ],
        [
            "t",
            ".</w>"
        ],
        [
            "on",
            "g"
        ],
        [
            "b",
            "o"
        ],
        [
            "f",
            "rom</w>"
        ],
        [
            "h",
            "er"
        ],
        [
            "en",
            "t</w>"
        ],
        [
            "f",
            "i"
        ],
        [
            "u",
            "s</w>"
        ],
        [
            "th",
            "ou"
        ],
        [
            "s",
            "ir"
        ],
        [
            "a",
            "l"
        ],
        [
            "I",
            "C"
        ],
        [
            "w",
            "ar"
        ],
        [
            "g",
            "ood</w>"
        ],
        [
            "es",
            ",</w>"
        ],
        [
            "d",
            "ea"
        ],
        [
            "i",
            "f</w>"
        ],
        [
            "O",
            "L"
        ],
        [
            "w",
            "as</w>"
        ],
        [
            "u",
            "p"
        ],
        [
            "h",
            "ea"
        ],
        [
            "f",
            "u"
        ],
        [
            "E",
            "L"
        ],
        [
            "h",
            "ear"
        ],
        [
            "f",
            "e"
        ],
        [
            "l",
            "ea"
        ],
        [
            "I",
            "US:</w>"
        ],
        [
            "KING",
            "</w>"
        ],
        [
            "AR",
            "D"
        ],
        [
            "om",
            "e</w>"
        ],
        [
            "w",
            "ould</w>"
        ],
        [
            "t",
            "t"
        ],
        [
            "F",
            "or</w>"
        ],
        [
            "m",
            "in"
        ],
        [
            "ou",
            "s</w>"
        ],
        [
            "the",
            "ir</w>"
        ],
        [
            "-",
            "-"
        ],
        [
            "p",
            "ar"
        ],
        [
            "S",
            "T"
        ],
        [
            "M",
            "y</w>"
        ],
        [
            "r",
            "ow"
        ],
        [
            "c",
            "e,</w>"
        ],
        [
            "o",
            "f"
        ],
        [
            "v",
            "er</w>"
        ],
        [
            "W",
            "i"
        ],
        [
            "the",
            "y</w>"
        ],
        [
            "a",
            "m</w>"
        ],
        [
            "the",
            "e</w>"
        ],
        [
            "v",
            "e"
        ],
        [
            "I",
            "'ll</w>"
        ],
        [
            "r",
            "an"
        ],
        [
            "p",
            "ro"
        ],
        [
            "h",
            "o"
        ],
        [
            "E",
            ":</w>"
        ],
        [
            "g",
            "i"
        ],
        [
            "th",
            "in"
        ],
        [
            "d",
            "e</w>"
        ],
        [
            "g",
            "e</w>"
        ],
        [
            "gh",
            "t"
        ],
        [
            "O",
            "N"
        ],
        [
            "mor",
            "e</w>"
        ],
        [
            "m",
            "e,</w>"
        ],
        [
            "i",
            "s"
        ],
        [
            "b",
            "le</w>"
        ],
        [
            "p",
            "er"
        ],
        [
            "d",
            ";</w>"
        ],
        [
            "t",
            "ru"
        ],
        [
            "u",
            "s"
        ],
        [
            "d",
            "er"
        ],
        [
            "c",
            "k</w>"
        ],
        [
            "W",
            "hat</w>"
        ],
        [
            "g",
            "ra"
        ],
        [
            "ll",
            ",</w>"
        ],
        [
            "d",
            ":</w>"
        ],
        [
            "en",
            ",</w>"
        ],
        [
            "s",
            "w"
        ],
        [
            "A",
            "s</w>"
        ],
        [
            "b",
            "ro"
        ],
        [
            "s",
            "he</w>"
        ],
        [
            "I",
            "I"
        ],
        [
            "w",
            "ere</w>"
        ],
        [
            "ha",
            "th</w>"
        ],
        [
            "A",
            "</w>"
        ],
        [
            "b",
            "a"
        ],
        [
            "s",
            "o"
        ],
        [
            "h",
            "e"
        ],
        [
            "gh",
            "</w>"
        ],
        [
            "on",
            ",</w>"
        ],
        [
            "H",
            "a"
        ],
        [
            "li",
            "ke</w>"
        ],
        [
            "ma",
            "ke</w>"
        ],
        [
            "p",
            "e"
        ],
        [
            "g",
            "e"
        ],
        [
            "'",
            "t"
        ],
        [
            "th",
            ",</w>"
        ],
        [
            "you",
            ",</w>"
        ],
        [
            "k",
            "ing"
        ],
        [
            "ARD",
            "</w>"
        ],
        [
            "t",
            "s</w>"
        ],
        [
            "th",
            "an</w>"
        ],
        [
            "R",
            "O"
        ],
        [
            "g",
            "o"
        ],
        [
            "T",
            "IO:</w>"
        ],
        [
            "d",
            "u"
        ],
        [
            "n",
            "i"
        ],
        [
            "w",
            "</w>"
        ],
        [
            "p",
            "r"
        ],
        [
            "n",
            "a"
        ],
        [
            "ma",
            "y</w>"
        ],
        [
            "ET",
            ":</w>"
        ],
        [
            "mu",
            "st</w>"
        ],
        [
            "A",
            "U"
        ],
        [
            "le",
            "t</w>"
        ],
        [
            "com",
            "e</w>"
        ],
        [
            "Y",
            "</w>"
        ],
        [
            "E",
            "</w>"
        ],
        [
            "Y",
            "ou</w>"
        ],
        [
            "the",
            "m</w>"
        ],
        [
            "en",
            "d</w>"
        ],
        [
            "ow",
            ",</w>"
        ],
        [
            "ga",
            "in"
        ],
        [
            "ir",
            "st</w>"
        ],
        [
            "s",
            ";</w>"
        ],
        [
            "er",
            "e"
        ],
        [
            "sh",
            "ould</w>"
        ],
        [
            "f",
            "ri"
        ],
        [
            "n",
            "ow</w>"
        ],
        [
            "s",
            ":</w>"
        ],
        [
            "up",
            "on</w>"
        ],
        [
            "m",
            "b"
        ],
        [
            "sp",
            "ea"
        ],
        [
            "for",
            "e</w>"
        ],
        [
            "w",
            "hich</w>"
        ],
        [
            "ou",
            "t</w>"
        ],
        [
            "K",
            ":</w>"
        ],
        [
            "I",
            "f</w>"
        ],
        [
            "i",
            "d</w>"
        ],
        [
            "C",
            "A"
        ],
        [
            "p",
            "p"
        ],
        [
            "IC",
            "H"
        ],
        [
            "ow",
            "n</w>"
        ],
        [
            "l",
            "an"
        ],
        [
            "m",
            "p"
        ],
        [
            "R",
            "ICH"
        ],
        [
            "v",
            "en</w>"
        ],
        [
            "c",
            "an"
        ],
        [
            "h",
            "ow</w>"
        ],
        [
            "d",
            "es"
        ],
        [
            "h",
            "an"
        ],
        [
            "en",
            "ce</w>"
        ],
        [
            "th",
            "en</w>"
        ],
        [
            "D",
            "U"
        ],
        [
            "DU",
            "K"
        ],
        [
            "ha",
            "d</w>"
        ],
        [
            "DUK",
            "E</w>"
        ],
        [
            "st",
            "a"
        ],
        [
            "m",
            "ar"
        ],
        [
            "es",
            "e</w>"
        ],
        [
            "h",
            "on"
        ],
        [
            "kn",
            "ow</w>"
        ],
        [
            "a",
            "c"
        ],
        [
            "g",
            "u"
        ],
        [
            "EN",
            "TIO:</w>"
        ],
        [
            "G",
            "o"
        ],
        [
            "ER",
            ":</w>"
        ],
        [
            "r",
            "y</w>"
        ],
        [
            "O",
            "</w>"
        ],
        [
            "o",
            "se</w>"
        ],
        [
            "e",
            "y"
        ],
        [
            "p",
            "la"
        ],
        [
            "Y",
            ":</w>"
        ],
        [
            "fu",
            "l</w>"
        ],
        [
            "s",
            "ome</w>"
        ],
        [
            "O",
            ",</w>"
        ],
        [
            "i",
            "g"
        ],
        [
            "ver",
            "y</w>"
        ],
        [
            "li",
            "f"
        ],
        [
            "t",
            "'s</w>"
        ],
        [
            "H",
            "e</w>"
        ],
        [
            "m",
            "an</w>"
        ],
        [
            "IN",
            "C"
        ],
        [
            "wh",
            "en</w>"
        ],
        [
            "om",
            "e"
        ],
        [
            "ur",
            "e</w>"
        ],
        [
            "t",
            "ed</w>"
        ],
        [
            "en",
            "d"
        ],
        [
            "ti",
            "on</w>"
        ],
        [
            "l",
            "oo"
        ],
        [
            "t",
            "y</w>"
        ],
        [
            "s",
            "on"
        ],
        [
            "c",
            "u"
        ],
        [
            "di",
            "d</w>"
        ],
        [
            "ther",
            ",</w>"
        ],
        [
            "sir",
            ",</w>"
        ],
        [
            "sa",
            "y</w>"
        ],
        [
            "h",
            "ere</w>"
        ],
        [
            "g",
            "ent"
        ],
        [
            "e",
            "x"
        ],
        [
            "d",
            "y</w>"
        ],
        [
            "ow",
            "n"
        ],
        [
            "sel",
            "f"
        ],
        [
            "A",
            "B"
        ],
        [
            "st",
            "er"
        ],
        [
            "W",
            "hich</w>"
        ],
        [
            "su",
            "ch</w>"
        ],
        [
            "st",
            "i"
        ],
        [
            "k",
            ",</w>"
        ],
        [
            "a",
            "l</w>"
        ],
        [
            "o",
            "p"
        ],
        [
            "sel",
            "f</w>"
        ],
        [
            "v",
            "es</w>"
        ],
        [
            "ta",
            "ke</w>"
        ],
        [
            "a",
            "gain"
        ],
        [
            "i",
            "l"
        ],
        [
            "sh",
            "</w>"
        ],
        [
            "v",
            "e,</w>"
        ],
        [
            "t",
            ":</w>"
        ],
        [
            "--",
            "</w>"
        ],
        [
            "mo",
            "st</w>"
        ],
        [
            "ther",
            "e"
        ],
        [
            "m",
            ",</w>"
        ],
        [
            "lo",
            "ve</w>"
        ],
        [
            "I",
            "n</w>"
        ],
        [
            "th",
            "ese</w>"
        ],
        [
            "L",
            "O"
        ],
        [
            "k",
            "ing</w>"
        ],
        [
            "gi",
            "ve</w>"
        ],
        [
            "I",
            ":</w>"
        ],
        [
            "y",
            "et</w>"
        ],
        [
            "p",
            "ri"
        ],
        [
            "Wi",
            "th</w>"
        ],
        [
            "ch",
            "ar"
        ],
        [
            "RICH",
            "ARD</w>"
        ],
        [
            "F",
            "irst</w>"
        ],
        [
            "c",
            "oun"
        ],
        [
            "s",
            "c"
        ],
        [
            "E",
            "ST"
        ],
        [
            "p",
            "ra"
        ],
        [
            "se",
            "e</w>"
        ],
        [
            "UC",
            "H"
        ],
        [
            "we",
            "ll</w>"
        ],
        [
            "O",
            "f</w>"
        ],
        [
            "c",
            "hi"
        ],
        [
            "th",
            "ing</w>"
        ],
        [
            "v",
            "o"
        ],
        [
            "G",
            "LO"
        ],
        [
            "GLO",
            "UC"
        ],
        [
            "GLOUC",
            "EST"
        ],
        [
            "GLOUCEST",
            "ER:</w>"
        ],
        [
            "T",
            "his</w>"
        ],
        [
            "ti",
            "on"
        ],
        [
            "ee",
            "t</w>"
        ],
        [
            "E",
            "EN"
        ],
        [
            "v",
            "en"
        ],
        [
            "L",
            "or"
        ],
        [
            "y",
            ";</w>"
        ],
        [
            "e",
            ";</w>"
        ],
        [
            "se",
            "d</w>"
        ],
        [
            "M",
            "a"
        ],
        [
            "L",
            "I"
        ],
        [
            "s",
            "in"
        ],
        [
            "b",
            "u"
        ],
        [
            "y",
            ":</w>"
        ],
        [
            "om",
            "e,</w>"
        ],
        [
            "s",
            "er"
        ],
        [
            "c",
            "an</w>"
        ],
        [
            "ou",
            "l"
        ],
        [
            "Q",
            "U"
        ],
        [
            "QU",
            "EEN"
        ],
        [
            "V",
            "INC"
        ],
        [
            "VINC",
            "ENTIO:</w>"
        ],
        [
            "M",
            "ar"
        ],
        [
            "d",
            "s,</w>"
        ],
        [
            "O",
            "F"
        ],
        [
            "OF",
            "</w>"
        ],
        [
            "d",
            "?</w>"
        ],
        [
            "the",
            "e,</w>"
        ],
        [
            "st",
            ",</w>"
        ],
        [
            "H",
            "ow</w>"
        ],
        [
            "b",
            "rea"
        ],
        [
            "w",
            "hi"
        ],
        [
            "Th",
            "ou</w>"
        ],
        [
            "lor",
            "d,</w>"
        ],
        [
            "H",
            "EN"
        ],
        [
            "e",
            ":</w>"
        ],
        [
            "S",
            "e"
        ],
        [
            "g",
            "o</w>"
        ],
        [
            "d",
            "'s</w>"
        ],
        [
            "an",
            "y</w>"
        ],
        [
            "t",
            "e</w>"
        ],
        [
            "t",
            "u"
        ],
        [
            "a",
            "f"
        ],
        [
            "s",
            "e,</w>"
        ],
        [
            "ti",
            "me</w>"
        ],
        [
            "l",
            "t</w>"
        ],
        [
            "in",
            "d</w>"
        ],
        [
            "d",
            "er</w>"
        ],
        [
            "te",
            "ll</w>"
        ],
        [
            "g",
            "rea"
        ],
        [
            "'t",
            "is</w>"
        ],
        [
            "S",
            "o</w>"
        ],
        [
            "HEN",
            "R"
        ],
        [
            "HENR",
            "Y</w>"
        ],
        [
            "f",
            "o"
        ],
        [
            "t",
            "er</w>"
        ],
        [
            "ing",
            ",</w>"
        ],
        [
            "E",
            "S"
        ],
        [
            "u",
            "p</w>"
        ],
        [
            "r",
            "ou"
        ],
        [
            "b",
            "an"
        ],
        [
            "a",
            "d"
        ],
        [
            "we",
            "ll"
        ],
        [
            "min",
            "e</w>"
        ],
        [
            "I",
            "s</w>"
        ],
        [
            "OR",
            "I"
        ],
        [
            "v",
            "ed</w>"
        ],
        [
            "c",
            "e.</w>"
        ],
        [
            "n",
            "g"
        ],
        [
            "ma",
            "de</w>"
        ],
        [
            "er",
            ":</w>"
        ],
        [
            "th",
            "ere</w>"
        ],
        [
            "s",
            "!</w>"
        ],
        [
            "QUEEN",
            "</w>"
        ],
        [
            "a",
            "p"
        ],
        [
            "d",
            "!</w>"
        ],
        [
            "p",
            "re"
        ],
        [
            "ne",
            "ver</w>"
        ],
        [
            "j",
            "o"
        ],
        [
            "E",
            "S:</w>"
        ],
        [
            "a",
            "b"
        ],
        [
            "Y",
            "our</w>"
        ],
        [
            "Y",
            "OR"
        ],
        [
            "YOR",
            "K:</w>"
        ],
        [
            "to",
            "o</w>"
        ],
        [
            "p",
            "res"
        ],
        [
            "W",
            "e</w>"
        ],
        [
            "ri",
            "e"
        ],
        [
            "W",
            "ha"
        ],
        [
            "ar",
            "t</w>"
        ],
        [
            "IN",
            "IUS:</w>"
        ],
        [
            "o",
            "ld</w>"
        ],
        [
            "m",
            "er"
        ],
        [
            "ong",
            "</w>"
        ],
        [
            "se",
            "e"
        ],
        [
            "li",
            "e"
        ],
        [
            "u",
            "se</w>"
        ],
        [
            "k",
            "s</w>"
        ],
        [
            "j",
            "u"
        ],
        [
            "l",
            "ess</w>"
        ],
        [
            "P",
            "ET"
        ],
        [
            "l",
            "u"
        ],
        [
            "I",
            "t</w>"
        ],
        [
            "s",
            "on</w>"
        ],
        [
            "d",
            "ee"
        ],
        [
            "'",
            "st</w>"
        ],
        [
            "e",
            "?</w>"
        ],
        [
            "t",
            "ra"
        ],
        [
            "'",
            "T"
        ],
        [
            "f",
            "ar"
        ],
        [
            "E",
            "D"
        ],
        [
            "ED",
            "W"
        ],
        [
            "h",
            "ear</w>"
        ],
        [
            "wa",
            "y</w>"
        ],
        [
            "Wh",
            "y,</w>"
        ],
        [
            "t",
            ";</w>"
        ],
        [
            "R",
            "i"
        ],
        [
            "G",
            "R"
        ],
        [
            "mu",
            "ch</w>"
        ],
        [
            "T",
            "H"
        ],
        [
            "s",
            "en"
        ],
        [
            "s",
            "?</w>"
        ],
        [
            "es",
            ".</w>"
        ],
        [
            "tt",
            "er</w>"
        ],
        [
            "U",
            "M"
        ],
        [
            "M",
            "I"
        ],
        [
            "p",
            "lea"
        ],
        [
            "M",
            "EN"
        ],
        [
            "m",
            "e.</w>"
        ],
        [
            "L",
            "E"
        ],
        [
            "L",
            "UC"
        ],
        [
            "thin",
            "k</w>"
        ],
        [
            "m",
            "y"
        ],
        [
            "I",
            "S"
        ],
        [
            "can",
            "not</w>"
        ],
        [
            "er",
            ",</w>"
        ],
        [
            "no",
            "ble</w>"
        ],
        [
            "m",
            "en"
        ],
        [
            "EL",
            "L"
        ],
        [
            "him",
            ",</w>"
        ],
        [
            "at",
            "e</w>"
        ],
        [
            "con",
            "d</w>"
        ],
        [
            "do",
            "th</w>"
        ],
        [
            "i",
            "ti"
        ],
        [
            "B",
            "e"
        ],
        [
            "a",
            "ll"
        ],
        [
            "t",
            "ter"
        ],
        [
            "er",
            "s</w>"
        ],
        [
            "qu",
            "e"
        ],
        [
            "m",
            "on"
        ],
        [
            "t",
            "w"
        ],
        [
            "E",
            "d"
        ],
        [
            "M",
            "E"
        ],
        [
            "h",
            "ou"
        ],
        [
            "O",
            "r</w>"
        ],
        [
            "Ed",
            "war"
        ],
        [
            "RO",
            "ME"
        ],
        [
            "ROME",
            "O:</w>"
        ],
        [
            "MEN",
            "EN"
        ],
        [
            "MENEN",
            "IUS:</w>"
        ],
        [
            "W",
            "e"
        ],
        [
            "it",
            ".</w>"
        ],
        [
            "N",
            "o"
        ],
        [
            "v",
            "an"
        ],
        [
            "be",
            "en</w>"
        ],
        [
            "p",
            "ea"
        ],
        [
            "st",
            "an"
        ],
        [
            "B",
            "y</w>"
        ],
        [
            "a",
            "y,</w>"
        ],
        [
            "wh",
            "ere</w>"
        ],
        [
            "c",
            "t</w>"
        ],
        [
            "w",
            "om"
        ],
        [
            "o",
            "ther</w>"
        ],
        [
            "t",
            "ur"
        ],
        [
            "oun",
            "d</w>"
        ],
        [
            "b",
            "ea"
        ],
        [
            "PET",
            "R"
        ],
        [
            "PETR",
            "UCH"
        ],
        [
            "PETRUCH",
            "IO:</w>"
        ],
        [
            "a",
            "s"
        ],
        [
            "i",
            "t,</w>"
        ],
        [
            "l",
            "e,</w>"
        ],
        [
            "an",
            "g"
        ],
        [
            "O",
            "M"
        ],
        [
            "t",
            "or"
        ],
        [
            "Go",
            "d</w>"
        ],
        [
            "spea",
            "k</w>"
        ],
        [
            "'",
            "d,</w>"
        ],
        [
            "f",
            "l"
        ],
        [
            "n",
            "or</w>"
        ],
        [
            "pr",
            "in"
        ],
        [
            "t",
            "ri"
        ],
        [
            "Wh",
            "en</w>"
        ],
        [
            "him",
            ".</w>"
        ],
        [
            "r",
            "e</w>"
        ],
        [
            "e",
            "!</w>"
        ],
        [
            "s",
            "or"
        ],
        [
            "on",
            "e,</w>"
        ],
        [
            "C",
            "ome,</w>"
        ],
        [
            "s",
            "ea"
        ],
        [
            "A",
            "y,</w>"
        ],
        [
            "r",
            "ow</w>"
        ],
        [
            "ne",
            "w"
        ],
        [
            "s",
            "hi"
        ],
        [
            "M",
            "AR"
        ],
        [
            "H",
            "A"
        ],
        [
            "ON",
            "T"
        ],
        [
            "C",
            "l"
        ],
        [
            "y",
            "!</w>"
        ],
        [
            "n",
            "ess</w>"
        ],
        [
            "Wh",
            "ere</w>"
        ],
        [
            "C",
            "ORI"
        ],
        [
            "CORI",
            "OL"
        ],
        [
            "CORIOL",
            "AN"
        ],
        [
            "Se",
            "cond</w>"
        ],
        [
            "be",
            "ing</w>"
        ],
        [
            "fa",
            "ther"
        ],
        [
            "CORIOLAN",
            "US:</w>"
        ],
        [
            "you",
            ".</w>"
        ],
        [
            "v",
            "ing</w>"
        ],
        [
            "man",
            ":</w>"
        ],
        [
            "ck",
            ",</w>"
        ],
        [
            "d",
            "r"
        ],
        [
            "th",
            "i"
        ],
        [
            "l",
            ",</w>"
        ],
        [
            "c",
            "row"
        ],
        [
            "h",
            "ar"
        ],
        [
            "th",
            ".</w>"
        ],
        [
            "fa",
            "ir</w>"
        ],
        [
            "z",
            "en"
        ],
        [
            "t",
            "oo"
        ],
        [
            "e",
            "ver</w>"
        ],
        [
            "R",
            "ome"
        ],
        [
            "f",
            "oo"
        ],
        [
            "B",
            "A"
        ],
        [
            "y",
            "?</w>"
        ],
        [
            "ear",
            "s</w>"
        ],
        [
            "it",
            "y</w>"
        ],
        [
            "c",
            "es"
        ],
        [
            "da",
            "u"
        ],
        [
            "re",
            "d</w>"
        ],
        [
            "m",
            "en</w>"
        ],
        [
            "c",
            "o"
        ],
        [
            "e",
            "'s</w>"
        ],
        [
            "bl",
            "oo"
        ],
        [
            "i",
            "sh"
        ],
        [
            "y",
            "s</w>"
        ],
        [
            "no",
            "t,</w>"
        ],
        [
            "ing",
            "s</w>"
        ],
        [
            "g",
            "ar"
        ],
        [
            "gent",
            "le"
        ],
        [
            "IN",
            "A:</w>"
        ],
        [
            "'",
            "er</w>"
        ],
        [
            "Lor",
            "d</w>"
        ],
        [
            "m",
            "ent"
        ],
        [
            "b",
            "es"
        ],
        [
            "ll",
            "ow"
        ],
        [
            "t",
            "un"
        ],
        [
            "I",
            "V"
        ],
        [
            "D",
            ":</w>"
        ],
        [
            "u",
            "s,</w>"
        ],
        [
            "grea",
            "t</w>"
        ],
        [
            "of",
            "f"
        ],
        [
            "II",
            "I:</w>"
        ],
        [
            "'",
            "t</w>"
        ],
        [
            "you",
            "r"
        ],
        [
            "Th",
            "an</w>"
        ],
        [
            "se",
            ".</w>"
        ],
        [
            "wi",
            "f"
        ],
        [
            "st",
            "er</w>"
        ],
        [
            "the",
            "m"
        ],
        [
            "b",
            "r"
        ],
        [
            "ha",
            "st</w>"
        ],
        [
            "t",
            "?</w>"
        ],
        [
            "b",
            "ra"
        ],
        [
            "en",
            "ce"
        ],
        [
            "g",
            "e,</w>"
        ],
        [
            "W",
            "ar"
        ],
        [
            "c",
            "ur"
        ],
        [
            "en",
            "e"
        ],
        [
            "wh",
            "o</w>"
        ],
        [
            "sw",
            "eet</w>"
        ],
        [
            "e",
            "p"
        ],
        [
            "be",
            "g"
        ],
        [
            "se",
            ":</w>"
        ],
        [
            "War",
            "wi"
        ],
        [
            "t",
            "en"
        ],
        [
            "d",
            "st</w>"
        ],
        [
            "U",
            "n"
        ],
        [
            "po",
            "or</w>"
        ],
        [
            "com",
            "es</w>"
        ],
        [
            "ong",
            "u"
        ],
        [
            "s",
            "la"
        ],
        [
            "H",
            "is</w>"
        ],
        [
            "be",
            "fore</w>"
        ],
        [
            "A",
            "D"
        ],
        [
            "p",
            "i"
        ],
        [
            "c",
            "ar"
        ],
        [
            "s",
            "wor"
        ],
        [
            "en",
            "ce,</w>"
        ],
        [
            "'T",
            "is</w>"
        ],
        [
            "IS",
            "AB"
        ],
        [
            "ISAB",
            "ELL"
        ],
        [
            "ISABELL",
            "A:</w>"
        ],
        [
            "man",
            "y</w>"
        ],
        [
            "t",
            "ongu"
        ],
        [
            "Wh",
            "o</w>"
        ],
        [
            "p",
            "ow"
        ],
        [
            "R",
            "AN"
        ],
        [
            "c",
            "or"
        ],
        [
            "c",
            "ha"
        ],
        [
            "ee",
            "p</w>"
        ],
        [
            "L",
            "et</w>"
        ],
        [
            "An",
            "d,</w>"
        ],
        [
            "in",
            ",</w>"
        ],
        [
            "J",
            "U"
        ],
        [
            "JU",
            "LI"
        ],
        [
            "JULI",
            "ET:</w>"
        ],
        [
            "LE",
            "ONT"
        ],
        [
            "LEONT",
            "ES:</w>"
        ],
        [
            "ch",
            ",</w>"
        ],
        [
            "p",
            "ur"
        ],
        [
            "di",
            "s"
        ],
        [
            "ir",
            ",</w>"
        ],
        [
            "me",
            "an"
        ],
        [
            "da",
            "y</w>"
        ],
        [
            "n",
            ",</w>"
        ],
        [
            "con",
            "t"
        ],
        [
            "gh",
            "t,</w>"
        ],
        [
            "fa",
            "ther</w>"
        ],
        [
            "kn",
            "ow"
        ],
        [
            "thou",
            "gh</w>"
        ],
        [
            "ing",
            ".</w>"
        ],
        [
            "f",
            "ear"
        ],
        [
            "d",
            "ly</w>"
        ],
        [
            "L",
            "AD"
        ],
        [
            "LAD",
            "Y</w>"
        ],
        [
            "c",
            "our"
        ],
        [
            "B",
            "u"
        ],
        [
            "V",
            "OL"
        ],
        [
            "P",
            "ro"
        ],
        [
            "EN",
            "C"
        ],
        [
            "ENC",
            "E:</w>"
        ],
        [
            "g",
            "oo"
        ],
        [
            "t",
            "ing</w>"
        ],
        [
            "er",
            ".</w>"
        ],
        [
            "k",
            "es</w>"
        ],
        [
            "hear",
            "t</w>"
        ],
        [
            "B",
            "R"
        ],
        [
            "Th",
            "en</w>"
        ],
        [
            "chi",
            "l"
        ],
        [
            "s",
            "le"
        ],
        [
            "C",
            "iti"
        ],
        [
            "Citi",
            "zen"
        ],
        [
            "Th",
            "e"
        ],
        [
            "b",
            "ear</w>"
        ],
        [
            "y",
            "'s</w>"
        ],
        [
            "lea",
            "ve</w>"
        ],
        [
            "r",
            "y,</w>"
        ],
        [
            "S",
            "er"
        ],
        [
            "again",
            "st</w>"
        ],
        [
            "li",
            "tt"
        ],
        [
            "h",
            "or"
        ],
        [
            "es",
            ";</w>"
        ],
        [
            "pa",
            "s"
        ],
        [
            "in",
            "e</w>"
        ],
        [
            "N",
            "ay,</w>"
        ],
        [
            "Wha",
            "t,</w>"
        ],
        [
            "S",
            "IC"
        ],
        [
            "SIC",
            "INIUS:</w>"
        ],
        [
            "n",
            "ow,</w>"
        ],
        [
            "bo",
            "th</w>"
        ],
        [
            "ou",
            "l</w>"
        ],
        [
            "i",
            "d"
        ],
        [
            "th",
            "an"
        ],
        [
            "m",
            "ent</w>"
        ],
        [
            "w",
            "o"
        ],
        [
            "an",
            "ce</w>"
        ],
        [
            "ti",
            "ll</w>"
        ],
        [
            "loo",
            "k</w>"
        ],
        [
            "S",
            "ha"
        ],
        [
            "re",
            "e</w>"
        ],
        [
            "th",
            "ose</w>"
        ],
        [
            "sp",
            "i"
        ],
        [
            "ee",
            "p"
        ],
        [
            "u",
            "l"
        ],
        [
            "t",
            "!</w>"
        ],
        [
            "th",
            "at"
        ],
        [
            "ci",
            "ous</w>"
        ],
        [
            "i",
            "ll</w>"
        ],
        [
            "an",
            "t</w>"
        ],
        [
            "N",
            "o,</w>"
        ],
        [
            "g",
            "rie"
        ],
        [
            "you",
            "ng"
        ],
        [
            "d",
            "on"
        ],
        [
            "h",
            "el"
        ],
        [
            "ca",
            "ll</w>"
        ],
        [
            "me",
            ";</w>"
        ],
        [
            "B",
            "e</w>"
        ],
        [
            "c",
            "ou"
        ],
        [
            "le",
            ".</w>"
        ],
        [
            "f",
            "ir"
        ],
        [
            "ca",
            "use</w>"
        ],
        [
            "hon",
            "our"
        ],
        [
            "ur",
            "der"
        ],
        [
            "LUC",
            "IO:</w>"
        ],
        [
            "No",
            "t</w>"
        ],
        [
            "bl",
            "ood</w>"
        ],
        [
            "su",
            "b"
        ],
        [
            "st",
            "and</w>"
        ],
        [
            "v",
            "a"
        ],
        [
            "T",
            "I"
        ],
        [
            "re",
            "e"
        ],
        [
            "k",
            "e,</w>"
        ],
        [
            "ho",
            "p"
        ],
        [
            "to",
            "-"
        ],
        [
            "Ri",
            "char"
        ],
        [
            "EDW",
            "ARD</w>"
        ],
        [
            "IV",
            ":</w>"
        ],
        [
            "d",
            "ing</w>"
        ],
        [
            "ll",
            "ow</w>"
        ],
        [
            "se",
            "t</w>"
        ],
        [
            "le",
            "s</w>"
        ],
        [
            "k",
            "in"
        ],
        [
            "ARD",
            ":</w>"
        ],
        [
            "L",
            "O:</w>"
        ],
        [
            "st",
            "r"
        ],
        [
            "m",
            "s</w>"
        ],
        [
            "Ha",
            "ve</w>"
        ],
        [
            "th",
            "us</w>"
        ],
        [
            "gh",
            "ter"
        ],
        [
            "l",
            "ou"
        ],
        [
            "i",
            "ve</w>"
        ],
        [
            "wi",
            "th"
        ],
        [
            "w",
            "r"
        ],
        [
            "Y",
            "or"
        ],
        [
            "C",
            "a"
        ],
        [
            "a",
            "wa"
        ],
        [
            "re",
            "p"
        ],
        [
            "o",
            "'</w>"
        ],
        [
            "fri",
            "end"
        ],
        [
            "t",
            "ch"
        ],
        [
            "s",
            "o,</w>"
        ],
        [
            "N",
            "ow</w>"
        ],
        [
            "Th",
            "y</w>"
        ],
        [
            "n",
            "ow"
        ],
        [
            "H",
            ":</w>"
        ],
        [
            "k",
            ".</w>"
        ],
        [
            "un",
            "to</w>"
        ],
        [
            "v",
            "e.</w>"
        ],
        [
            "n",
            "es"
        ],
        [
            "com",
            "e,</w>"
        ],
        [
            "bro",
            "ther"
        ],
        [
            "EL",
            "I"
        ],
        [
            "ELI",
            "Z"
        ],
        [
            "ELIZ",
            "AB"
        ],
        [
            "ELIZAB",
            "ET"
        ],
        [
            "ELIZABET",
            "H:</w>"
        ],
        [
            "st",
            ":</w>"
        ],
        [
            "l",
            "y,</w>"
        ],
        [
            "b",
            "ur"
        ],
        [
            "t",
            "s,</w>"
        ],
        [
            "tru",
            "e</w>"
        ],
        [
            "h",
            "us"
        ],
        [
            "s",
            "oul"
        ],
        [
            "GR",
            "E"
        ],
        [
            "I",
            "AN"
        ],
        [
            "pe",
            "op"
        ],
        [
            "litt",
            "le</w>"
        ],
        [
            "w",
            "ha"
        ],
        [
            "H",
            "en"
        ],
        [
            ",",
            "--</w>"
        ],
        [
            "d",
            "ou"
        ],
        [
            "na",
            "me</w>"
        ],
        [
            "S",
            "</w>"
        ],
        [
            "ro",
            "y"
        ],
        [
            "bro",
            "ther</w>"
        ],
        [
            "C",
            "L"
        ],
        [
            "com",
            "p"
        ],
        [
            "S",
            "a"
        ],
        [
            "ha",
            "pp"
        ],
        [
            "M",
            "ER"
        ],
        [
            "P",
            "ER"
        ],
        [
            "I",
            ",</w>"
        ],
        [
            "N",
            "ow,</w>"
        ],
        [
            "qu",
            "i"
        ],
        [
            "lif",
            "e</w>"
        ],
        [
            "G",
            "ood</w>"
        ],
        [
            "W",
            "AR"
        ],
        [
            "WAR",
            "W"
        ],
        [
            "WARW",
            "IC"
        ],
        [
            "WARWIC",
            "K:</w>"
        ],
        [
            "Citizen",
            ":</w>"
        ],
        [
            "i",
            "m"
        ]
    ],
    "stoi": {
        "!": 0,
        "!</w>": 1,
        "$": 2,
        "&": 3,
        "'": 4,
        "'</w>": 5,
        "'T": 6,
        "'Tis</w>": 7,
        "'d,</w>": 8,
        "'d</w>": 9,
        "'er</w>": 10,
        "'ll</w>": 11,
        "'s</w>": 12,
        "'st</w>": 13,
        "'t": 14,
        "'t</w>": 15,
        "'tis</w>": 16,
        ",": 17,
        ",--</w>": 18,
        ",</w>": 19,
        "-": 20,
        "--": 21,
        "--</w>": 22,
        ".": 23,
        ".</w>": 24,
        "3": 25,
        ":": 26,
        ":</w>": 27,
        ";": 28,
        ";</w>": 29,
        "</w>": 30,
        "?": 31,
        "?</w>": 32,
        "A": 33,
        "A:</w>": 34,
        "A</w>": 35,
        "AB": 36,
        "AD": 37,
        "AN": 38,
        "AR": 39,
        "ARD": 40,
        "ARD:</w>": 41,
        "AU": 42,
        "An": 43,
        "And,</w>": 44,
        "And</w>": 45,
        "As</w>": 46,
        "Ay,</w>": 47,
        "B": 48,
        "BA": 49,
        "BR": 50,
        "Be": 51,
        "Be</w>": 52,
        "Bu": 53,
        "But</w>": 54,
        "By</w>": 55,
        "C": 56,
        "CA": 57,
        "CL": 58,
        "CORIOLAN": 59,
        "CORIOLANUS:</w>": 60,
        "Ca": 61,
        "Citizen": 62,
        "Citizen:</w>": 63,
        "Cl": 64,
        "Come,</w>": 65,
        "D": 66,
        "D:</w>": 67,
        "DUK": 68,
        "DUKE</w>": 69,
        "E": 70,
        "E:</w>": 71,
        "E</w>": 72,
        "EDW": 73,
        "EDWARD</w>": 74,
        "EEN": 75,
        "EL": 76,
        "ELIZABETH:</w>": 77,
        "ELL": 78,
        "EN": 79,
        "ENCE:</w>": 80,
        "ENTIO:</w>": 81,
        "ER": 82,
        "ER:</w>": 83,
        "ES": 84,
        "ES:</w>": 85,
        "EST": 86,
        "ET": 87,
        "ET:</w>": 88,
        "Ed": 89,
        "Edwar": 90,
        "F": 91,
        "First</w>": 92,
        "For</w>": 93,
        "G": 94,
        "GLOUCESTER:</w>": 95,
        "GR": 96,
        "GRE": 97,
        "Go": 98,
        "God</w>": 99,
        "Good</w>": 100,
        "H": 101,
        "H:</w>": 102,
        "HA": 103,
        "HEN": 104,
        "HENRY</w>": 105,
        "Ha": 106,
        "Have</w>": 107,
        "He</w>": 108,
        "Hen": 109,
        "His</w>": 110,
        "How</w>": 111,
        "I": 112,
        "I'll</w>": 113,
        "I,</w>": 114,
        "I:</w>": 115,
        "I</w>": 116,
        "IAN": 117,
        "ICH": 118,
        "II": 119,
        "III:</w>": 120,
        "IN": 121,
        "INA:</w>": 122,
        "INC": 123,
        "ING": 124,
        "INIUS:</w>": 125,
        "IO:</w>": 126,
        "IS": 127,
        "ISABELLA:</w>": 128,
        "IUS:</w>": 129,
        "IV": 130,
        "IV:</w>": 131,
        "If</w>": 132,
        "In</w>": 133,
        "Is</w>": 134,
        "It</w>": 135,
        "J": 136,
        "JULIET:</w>": 137,
        "K": 138,
        "K:</w>": 139,
        "KING": 140,
        "KING</w>": 141,
        "L": 142,
        "LADY</w>": 143,
        "LE": 144,
        "LEONTES:</w>": 145,
        "LI": 146,
        "LO": 147,
        "LO:</w>": 148,
        "LUC": 149,
        "LUCIO:</w>": 150,
        "Let</w>": 151,
        "Lor": 152,
        "Lord</w>": 153,
        "M": 154,
        "MAR": 155,
        "ME": 156,
        "MEN": 157,
        "MENENIUS:</w>": 158,
        "MER": 159,
        "MI": 160,
        "Ma": 161,
        "Mar": 162,
        "My</w>": 163,
        "N": 164,
        "Nay,</w>": 165,
        "No": 166,
        "No,</w>": 167,
        "Not</w>": 168,
        "Now,</w>": 169,
        "Now</w>": 170,
        "O": 171,
        "O,</w>": 172,
        "O:</w>": 173,
        "O</w>": 174,
        "OF</w>": 175,
        "OL": 176,
        "OM": 177,
        "ON": 178,
        "ONT": 179,
        "OR": 180,
        "ORI": 181,
        "Of</w>": 182,
        "Or</w>": 183,
        "P": 184,
        "PER": 185,
        "PET": 186,
        "PETRUCHIO:</w>": 187,
        "Pro": 188,
        "Q": 189,
        "QUEEN": 190,
        "QUEEN</w>": 191,
        "R": 192,
        "RAN": 193,
        "RICH": 194,
        "RICHARD</w>": 195,
        "RO": 196,
        "ROMEO:</w>": 197,
        "Ri": 198,
        "Richar": 199,
        "Rome": 200,
        "S": 201,
        "S:</w>": 202,
        "S</w>": 203,
        "SICINIUS:</w>": 204,
        "ST": 205,
        "Sa": 206,
        "Se": 207,
        "Second</w>": 208,
        "Ser": 209,
        "Sha": 210,
        "So</w>": 211,
        "T": 212,
        "TH": 213,
        "TI": 214,
        "TIO:</w>": 215,
        "Th": 216,
        "Than</w>": 217,
        "That</w>": 218,
        "The": 219,
        "The</w>": 220,
        "Then</w>": 221,
        "This</w>": 222,
        "Thou</w>": 223,
        "Thy</w>": 224,
        "To</w>": 225,
        "U": 226,
        "UC": 227,
        "UCH": 228,
        "UM": 229,
        "US:</w>": 230,
        "Un": 231,
        "V": 232,
        "VINCENTIO:</w>": 233,
        "VOL": 234,
        "W": 235,
        "WARWICK:</w>": 236,
        "War": 237,
        "Warwi": 238,
        "We": 239,
        "We</w>": 240,
        "Wh": 241,
        "Wha": 242,
        "What,</w>": 243,
        "What</w>": 244,
        "When</w>": 245,
        "Where</w>": 246,
        "Which</w>": 247,
        "Who</w>": 248,
        "Why,</w>": 249,
        "Wi": 250,
        "With</w>": 251,
        "X": 252,
        "Y": 253,
        "Y:</w>": 254,
        "YORK:</w>": 255,
        "Yor": 256,
        "You</w>": 257,
        "Your</w>": 258,
        "Z": 259,
        "a": 260,
        "a</w>": 261,
        "ab": 262,
        "ac": 263,
        "ad": 264,
        "af": 265,
        "again": 266,
        "against</w>": 267,
        "al": 268,
        "al</w>": 269,
        "all": 270,
        "all</w>": 271,
        "am</w>": 272,
        "an": 273,
        "an</w>": 274,
        "ance</w>": 275,
        "and</w>": 276,
        "ang": 277,
        "ant</w>": 278,
        "any</w>": 279,
        "ap": 280,
        "ar": 281,
        "are</w>": 282,
        "art</w>": 283,
        "as": 284,
        "as</w>": 285,
        "at": 286,
        "at</w>": 287,
        "ate</w>": 288,
        "awa": 289,
        "ay,</w>": 290,
        "b": 291,
        "ba": 292,
        "ban": 293,
        "be": 294,
        "be</w>": 295,
        "bea": 296,
        "bear</w>": 297,
        "been</w>": 298,
        "before</w>": 299,
        "beg": 300,
        "being</w>": 301,
        "bes": 302,
        "bl": 303,
        "ble</w>": 304,
        "bloo": 305,
        "blood</w>": 306,
        "bo": 307,
        "both</w>": 308,
        "br": 309,
        "bra": 310,
        "brea": 311,
        "bro": 312,
        "brother": 313,
        "brother</w>": 314,
        "bu": 315,
        "bur": 316,
        "but</w>": 317,
        "by</w>": 318,
        "c": 319,
        "ca": 320,
        "call</w>": 321,
        "can": 322,
        "can</w>": 323,
        "cannot</w>": 324,
        "car": 325,
        "cause</w>": 326,
        "ce": 327,
        "ce,</w>": 328,
        "ce.</w>": 329,
        "ce</w>": 330,
        "ces": 331,
        "ch": 332,
        "ch,</w>": 333,
        "ch</w>": 334,
        "cha": 335,
        "char": 336,
        "chi": 337,
        "chil": 338,
        "ci": 339,
        "cious</w>": 340,
        "ck": 341,
        "ck,</w>": 342,
        "ck</w>": 343,
        "co": 344,
        "com": 345,
        "come,</w>": 346,
        "come</w>": 347,
        "comes</w>": 348,
        "comp": 349,
        "con": 350,
        "cond</w>": 351,
        "cont": 352,
        "cor": 353,
        "cou": 354,
        "coun": 355,
        "cour": 356,
        "crow": 357,
        "ct</w>": 358,
        "cu": 359,
        "cur": 360,
        "d": 361,
        "d!</w>": 362,
        "d's</w>": 363,
        "d,</w>": 364,
        "d.</w>": 365,
        "d:</w>": 366,
        "d;</w>": 367,
        "d</w>": 368,
        "d?</w>": 369,
        "da": 370,
        "dau": 371,
        "day</w>": 372,
        "de": 373,
        "de</w>": 374,
        "dea": 375,
        "dee": 376,
        "der": 377,
        "der</w>": 378,
        "des": 379,
        "di": 380,
        "did</w>": 381,
        "ding</w>": 382,
        "dis": 383,
        "dly</w>": 384,
        "do": 385,
        "do</w>": 386,
        "don": 387,
        "doth</w>": 388,
        "dou": 389,
        "dr": 390,
        "ds,</w>": 391,
        "ds</w>": 392,
        "dst</w>": 393,
        "du": 394,
        "dy</w>": 395,
        "e": 396,
        "e!</w>": 397,
        "e's</w>": 398,
        "e,</w>": 399,
        "e.</w>": 400,
        "e:</w>": 401,
        "e;</w>": 402,
        "e</w>": 403,
        "e?</w>": 404,
        "ea": 405,
        "ear": 406,
        "ear</w>": 407,
        "ears</w>": 408,
        "ed</w>": 409,
        "ee": 410,
        "eep": 411,
        "eep</w>": 412,
        "eet</w>": 413,
        "el": 414,
        "en": 415,
        "en,</w>": 416,
        "en</w>": 417,
        "ence": 418,
        "ence,</w>": 419,
        "ence</w>": 420,
        "end": 421,
        "end</w>": 422,
        "ene": 423,
        "ent": 424,
        "ent</w>": 425,
        "ep": 426,
        "er": 427,
        "er,</w>": 428,
        "er.</w>": 429,
        "er:</w>": 430,
        "er</w>": 431,
        "ere": 432,
        "ere</w>": 433,
        "ers</w>": 434,
        "es": 435,
        "es,</w>": 436,
        "es.</w>": 437,
        "es;</w>": 438,
        "es</w>": 439,
        "ese</w>": 440,
        "ess</w>": 441,
        "est</w>": 442,
        "et</w>": 443,
        "ever</w>": 444,
        "ex": 445,
        "ey": 446,
        "f": 447,
        "f</w>": 448,
        "fa": 449,
        "fair</w>": 450,
        "far": 451,
        "father": 452,
        "father</w>": 453,
        "fe": 454,
        "fear": 455,
        "fi": 456,
        "fir": 457,
        "fl": 458,
        "fo": 459,
        "foo": 460,
        "for": 461,
        "for</w>": 462,
        "fore</w>": 463,
        "fri": 464,
        "friend": 465,
        "from</w>": 466,
        "fu": 467,
        "ful</w>": 468,
        "g": 469,
        "ga": 470,
        "gain": 471,
        "gar": 472,
        "ge": 473,
        "ge,</w>": 474,
        "ge</w>": 475,
        "gent": 476,
        "gentle": 477,
        "gh": 478,
        "gh</w>": 479,
        "ght": 480,
        "ght,</w>": 481,
        "ght</w>": 482,
        "ghter": 483,
        "gi": 484,
        "give</w>": 485,
        "go": 486,
        "go</w>": 487,
        "goo": 488,
        "good</w>": 489,
        "gra": 490,
        "grea": 491,
        "great</w>": 492,
        "grie": 493,
        "gu": 494,
        "h": 495,
        "ha": 496,
        "had</w>": 497,
        "han": 498,
        "happ": 499,
        "har": 500,
        "hast</w>": 501,
        "hat</w>": 502,
        "hath</w>": 503,
        "have</w>": 504,
        "he": 505,
        "he</w>": 506,
        "hea": 507,
        "hear": 508,
        "hear</w>": 509,
        "heart</w>": 510,
        "hel": 511,
        "her": 512,
        "her</w>": 513,
        "here</w>": 514,
        "hi": 515,
        "him": 516,
        "him,</w>": 517,
        "him.</w>": 518,
        "him</w>": 519,
        "his</w>": 520,
        "ho": 521,
        "hon": 522,
        "honour": 523,
        "hop": 524,
        "hor": 525,
        "hou": 526,
        "how</w>": 527,
        "hus": 528,
        "i": 529,
        "id": 530,
        "id</w>": 531,
        "if</w>": 532,
        "ig": 533,
        "il": 534,
        "ill</w>": 535,
        "im": 536,
        "in": 537,
        "in,</w>": 538,
        "in</w>": 539,
        "ind</w>": 540,
        "ine</w>": 541,
        "ing": 542,
        "ing,</w>": 543,
        "ing.</w>": 544,
        "ing</w>": 545,
        "ings</w>": 546,
        "ir": 547,
        "ir,</w>": 548,
        "ir</w>": 549,
        "irst</w>": 550,
        "is": 551,
        "is</w>": 552,
        "ish": 553,
        "it": 554,
        "it,</w>": 555,
        "it.</w>": 556,
        "it</w>": 557,
        "iti": 558,
        "ity</w>": 559,
        "ive</w>": 560,
        "j": 561,
        "jo": 562,
        "ju": 563,
        "k": 564,
        "k,</w>": 565,
        "k.</w>": 566,
        "k</w>": 567,
        "ke,</w>": 568,
        "ke</w>": 569,
        "kes</w>": 570,
        "kin": 571,
        "king": 572,
        "king</w>": 573,
        "kn": 574,
        "know": 575,
        "know</w>": 576,
        "ks</w>": 577,
        "l": 578,
        "l,</w>": 579,
        "l</w>": 580,
        "la": 581,
        "lan": 582,
        "ld</w>": 583,
        "le": 584,
        "le,</w>": 585,
        "le.</w>": 586,
        "le</w>": 587,
        "lea": 588,
        "leave</w>": 589,
        "les</w>": 590,
        "less</w>": 591,
        "let</w>": 592,
        "li": 593,
        "lie": 594,
        "lif": 595,
        "life</w>": 596,
        "like</w>": 597,
        "litt": 598,
        "little</w>": 599,
        "ll": 600,
        "ll,</w>": 601,
        "ll</w>": 602,
        "llow": 603,
        "llow</w>": 604,
        "lo": 605,
        "loo": 606,
        "look</w>": 607,
        "lor": 608,
        "lord,</w>": 609,
        "lou": 610,
        "love</w>": 611,
        "lt</w>": 612,
        "lu": 613,
        "ly,</w>": 614,
        "ly</w>": 615,
        "m": 616,
        "m,</w>": 617,
        "m</w>": 618,
        "ma": 619,
        "made</w>": 620,
        "make</w>": 621,
        "man": 622,
        "man:</w>": 623,
        "man</w>": 624,
        "many</w>": 625,
        "mar": 626,
        "may</w>": 627,
        "mb": 628,
        "me": 629,
        "me,</w>": 630,
        "me.</w>": 631,
        "me;</w>": 632,
        "me</w>": 633,
        "mean": 634,
        "men": 635,
        "men</w>": 636,
        "ment": 637,
        "ment</w>": 638,
        "mer": 639,
        "mi": 640,
        "min": 641,
        "mine</w>": 642,
        "mo": 643,
        "mon": 644,
        "mor": 645,
        "more</w>": 646,
        "most</w>": 647,
        "mp": 648,
        "ms</w>": 649,
        "mu": 650,
        "much</w>": 651,
        "must</w>": 652,
        "my": 653,
        "my</w>": 654,
        "n": 655,
        "n,</w>": 656,
        "n</w>": 657,
        "na": 658,
        "name</w>": 659,
        "ne": 660,
        "nes": 661,
        "ness</w>": 662,
        "never</w>": 663,
        "new": 664,
        "ng": 665,
        "ni": 666,
        "no": 667,
        "no</w>": 668,
        "noble</w>": 669,
        "nor</w>": 670,
        "not,</w>": 671,
        "not</w>": 672,
        "now": 673,
        "now,</w>": 674,
        "now</w>": 675,
        "o": 676,
        "o'</w>": 677,
        "o,</w>": 678,
        "o</w>": 679,
        "of": 680,
        "of</w>": 681,
        "off": 682,
        "ol": 683,
        "old</w>": 684,
        "om": 685,
        "om</w>": 686,
        "ome": 687,
        "ome,</w>": 688,
        "ome</w>": 689,
        "on": 690,
        "on,</w>": 691,
        "on</w>": 692,
        "one,</w>": 693,
        "one</w>": 694,
        "ong": 695,
        "ong</w>": 696,
        "ongu": 697,
        "oo": 698,
        "ood</w>": 699,
        "op": 700,
        "or": 701,
        "or</w>": 702,
        "ose</w>": 703,
        "other</w>": 704,
        "ou": 705,
        "oul": 706,
        "oul</w>": 707,
        "ould</w>": 708,
        "oun": 709,
        "ound</w>": 710,
        "our": 711,
        "our</w>": 712,
        "ous</w>": 713,
        "out</w>": 714,
        "ow": 715,
        "ow,</w>": 716,
        "ow</w>": 717,
        "own": 718,
        "own</w>": 719,
        "p": 720,
        "p</w>": 721,
        "pa": 722,
        "par": 723,
        "pas": 724,
        "pe": 725,
        "pea": 726,
        "peop": 727,
        "per": 728,
        "pi": 729,
        "pla": 730,
        "plea": 731,
        "po": 732,
        "poor</w>": 733,
        "pow": 734,
        "pp": 735,
        "pr": 736,
        "pra": 737,
        "pre": 738,
        "pres": 739,
        "pri": 740,
        "prin": 741,
        "pro": 742,
        "pur": 743,
        "qu": 744,
        "que": 745,
        "qui": 746,
        "r": 747,
        "r</w>": 748,
        "ra": 749,
        "ran": 750,
        "re": 751,
        "re</w>": 752,
        "rea": 753,
        "red</w>": 754,
        "ree": 755,
        "ree</w>": 756,
        "rep": 757,
        "res": 758,
        "ri": 759,
        "rie": 760,
        "ro": 761,
        "rom</w>": 762,
        "rou": 763,
        "row": 764,
        "row</w>": 765,
        "roy": 766,
        "ru": 767,
        "ry,</w>": 768,
        "ry</w>": 769,
        "s": 770,
        "s!</w>": 771,
        "s,</w>": 772,
        "s.</w>": 773,
        "s:</w>": 774,
        "s;</w>": 775,
        "s</w>": 776,
        "s?</w>": 777,
        "sa": 778,
        "say</w>": 779,
        "sc": 780,
        "se": 781,
        "se,</w>": 782,
        "se.</w>": 783,
        "se:</w>": 784,
        "se</w>": 785,
        "sea": 786,
        "sed</w>": 787,
        "see": 788,
        "see</w>": 789,
        "sel": 790,
        "self": 791,
        "self</w>": 792,
        "sen": 793,
        "ser": 794,
        "set</w>": 795,
        "sh": 796,
        "sh</w>": 797,
        "sha": 798,
        "shall</w>": 799,
        "she</w>": 800,
        "shi": 801,
        "should</w>": 802,
        "si": 803,
        "sin": 804,
        "sir": 805,
        "sir,</w>": 806,
        "sla": 807,
        "sle": 808,
        "so": 809,
        "so,</w>": 810,
        "so</w>": 811,
        "some</w>": 812,
        "son": 813,
        "son</w>": 814,
        "sor": 815,
        "soul": 816,
        "sp": 817,
        "spea": 818,
        "speak</w>": 819,
        "spi": 820,
        "st": 821,
        "st,</w>": 822,
        "st:</w>": 823,
        "st</w>": 824,
        "sta": 825,
        "stan": 826,
        "stand</w>": 827,
        "ster": 828,
        "ster</w>": 829,
        "sti": 830,
        "str": 831,
        "su": 832,
        "sub": 833,
        "such</w>": 834,
        "sw": 835,
        "sweet</w>": 836,
        "swor": 837,
        "t": 838,
        "t!</w>": 839,
        "t's</w>": 840,
        "t,</w>": 841,
        "t.</w>": 842,
        "t:</w>": 843,
        "t;</w>": 844,
        "t</w>": 845,
        "t?</w>": 846,
        "ta": 847,
        "take</w>": 848,
        "tch": 849,
        "te": 850,
        "te</w>": 851,
        "ted</w>": 852,
        "tell</w>": 853,
        "ten": 854,
        "ter": 855,
        "ter</w>": 856,
        "th": 857,
        "th,</w>": 858,
        "th.</w>": 859,
        "th</w>": 860,
        "than": 861,
        "than</w>": 862,
        "that": 863,
        "that</w>": 864,
        "the": 865,
        "the</w>": 866,
        "thee,</w>": 867,
        "thee</w>": 868,
        "their</w>": 869,
        "them": 870,
        "them</w>": 871,
        "then</w>": 872,
        "ther": 873,
        "ther,</w>": 874,
        "ther</w>": 875,
        "there": 876,
        "there</w>": 877,
        "these</w>": 878,
        "they</w>": 879,
        "thi": 880,
        "thin": 881,
        "thing</w>": 882,
        "think</w>": 883,
        "this</w>": 884,
        "those</w>": 885,
        "thou": 886,
        "thou</w>": 887,
        "though</w>": 888,
        "thus</w>": 889,
        "thy</w>": 890,
        "ti": 891,
        "till</w>": 892,
        "time</w>": 893,
        "ting</w>": 894,
        "tion": 895,
        "tion</w>": 896,
        "to": 897,
        "to-": 898,
        "to</w>": 899,
        "tongu": 900,
        "too": 901,
        "too</w>": 902,
        "tor": 903,
        "tra": 904,
        "tri": 905,
        "tru": 906,
        "true</w>": 907,
        "ts,</w>": 908,
        "ts</w>": 909,
        "tt": 910,
        "tter": 911,
        "tter</w>": 912,
        "tu": 913,
        "tun": 914,
        "tur": 915,
        "tw": 916,
        "ty</w>": 917,
        "u": 918,
        "ul": 919,
        "un": 920,
        "unto</w>": 921,
        "up": 922,
        "up</w>": 923,
        "upon</w>": 924,
        "ur": 925,
        "urder": 926,
        "ure</w>": 927,
        "us": 928,
        "us,</w>": 929,
        "us</w>": 930,
        "use</w>": 931,
        "ut</w>": 932,
        "v": 933,
        "va": 934,
        "van": 935,
        "ve": 936,
        "ve,</w>": 937,
        "ve.</w>": 938,
        "ve</w>": 939,
        "ved</w>": 940,
        "ven": 941,
        "ven</w>": 942,
        "ver": 943,
        "ver</w>": 944,
        "very</w>": 945,
        "ves</w>": 946,
        "vi": 947,
        "ving</w>": 948,
        "vo": 949,
        "w": 950,
        "w</w>": 951,
        "wa": 952,
        "war": 953,
        "was</w>": 954,
        "way</w>": 955,
        "we": 956,
        "we</w>": 957,
        "well": 958,
        "well</w>": 959,
        "were</w>": 960,
        "wh": 961,
        "wha": 962,
        "what</w>": 963,
        "when</w>": 964,
        "where</w>": 965,
        "whi": 966,
        "which</w>": 967,
        "who</w>": 968,
        "wi": 969,
        "wif": 970,
        "will</w>": 971,
        "with": 972,
        "with</w>": 973,
        "wo": 974,
        "wom": 975,
        "wor": 976,
        "would</w>": 977,
        "wr": 978,
        "x": 979,
        "y": 980,
        "y!</w>": 981,
        "y's</w>": 982,
        "y,</w>": 983,
        "y.</w>": 984,
        "y:</w>": 985,
        "y;</w>": 986,
        "y</w>": 987,
        "y?</w>": 988,
        "yet</w>": 989,
        "you": 990,
        "you,</w>": 991,
        "you.</w>": 992,
        "you</w>": 993,
        "young": 994,
        "your": 995,
        "your</w>": 996,
        "ys</w>": 997,
        "z": 998,
        "zen": 999
    },
    "itos": {
        "0": "!",
        "1": "!</w>",
        "2": "$",
        "3": "&",
        "4": "'",
        "5": "'</w>",
        "6": "'T",
        "7": "'Tis</w>",
        "8": "'d,</w>",
        "9": "'d</w>",
        "10": "'er</w>",
        "11": "'ll</w>",
        "12": "'s</w>",
        "13": "'st</w>",
        "14": "'t",
        "15": "'t</w>",
        "16": "'tis</w>",
        "17": ",",
        "18": ",--</w>",
        "19": ",</w>",
        "20": "-",
        "21": "--",
        "22": "--</w>",
        "23": ".",
        "24": ".</w>",
        "25": "3",
        "26": ":",
        "27": ":</w>",
        "28": ";",
        "29": ";</w>",
        "30": "</w>",
        "31": "?",
        "32": "?</w>",
        "33": "A",
        "34": "A:</w>",
        "35": "A</w>",
        "36": "AB",
        "37": "AD",
        "38": "AN",
        "39": "AR",
        "40": "ARD",
        "41": "ARD:</w>",
        "42": "AU",
        "43": "An",
        "44": "And,</w>",
        "45": "And</w>",
        "46": "As</w>",
        "47": "Ay,</w>",
        "48": "B",
        "49": "BA",
        "50": "BR",
        "51": "Be",
        "52": "Be</w>",
        "53": "Bu",
        "54": "But</w>",
        "55": "By</w>",
        "56": "C",
        "57": "CA",
        "58": "CL",
        "59": "CORIOLAN",
        "60": "CORIOLANUS:</w>",
        "61": "Ca",
        "62": "Citizen",
        "63": "Citizen:</w>",
        "64": "Cl",
        "65": "Come,</w>",
        "66": "D",
        "67": "D:</w>",
        "68": "DUK",
        "69": "DUKE</w>",
        "70": "E",
        "71": "E:</w>",
        "72": "E</w>",
        "73": "EDW",
        "74": "EDWARD</w>",
        "75": "EEN",
        "76": "EL",
        "77": "ELIZABETH:</w>",
        "78": "ELL",
        "79": "EN",
        "80": "ENCE:</w>",
        "81": "ENTIO:</w>",
        "82": "ER",
        "83": "ER:</w>",
        "84": "ES",
        "85": "ES:</w>",
        "86": "EST",
        "87": "ET",
        "88": "ET:</w>",
        "89": "Ed",
        "90": "Edwar",
        "91": "F",
        "92": "First</w>",
        "93": "For</w>",
        "94": "G",
        "95": "GLOUCESTER:</w>",
        "96": "GR",
        "97": "GRE",
        "98": "Go",
        "99": "God</w>",
        "100": "Good</w>",
        "101": "H",
        "102": "H:</w>",
        "103": "HA",
        "104": "HEN",
        "105": "HENRY</w>",
        "106": "Ha",
        "107": "Have</w>",
        "108": "He</w>",
        "109": "Hen",
        "110": "His</w>",
        "111": "How</w>",
        "112": "I",
        "113": "I'll</w>",
        "114": "I,</w>",
        "115": "I:</w>",
        "116": "I</w>",
        "117": "IAN",
        "118": "ICH",
        "119": "II",
        "120": "III:</w>",
        "121": "IN",
        "122": "INA:</w>",
        "123": "INC",
        "124": "ING",
        "125": "INIUS:</w>",
        "126": "IO:</w>",
        "127": "IS",
        "128": "ISABELLA:</w>",
        "129": "IUS:</w>",
        "130": "IV",
        "131": "IV:</w>",
        "132": "If</w>",
        "133": "In</w>",
        "134": "Is</w>",
        "135": "It</w>",
        "136": "J",
        "137": "JULIET:</w>",
        "138": "K",
        "139": "K:</w>",
        "140": "KING",
        "141": "KING</w>",
        "142": "L",
        "143": "LADY</w>",
        "144": "LE",
        "145": "LEONTES:</w>",
        "146": "LI",
        "147": "LO",
        "148": "LO:</w>",
        "149": "LUC",
        "150": "LUCIO:</w>",
        "151": "Let</w>",
        "152": "Lor",
        "153": "Lord</w>",
        "154": "M",
        "155": "MAR",
        "156": "ME",
        "157": "MEN",
        "158": "MENENIUS:</w>",
        "159": "MER",
        "160": "MI",
        "161": "Ma",
        "162": "Mar",
        "163": "My</w>",
        "164": "N",
        "165": "Nay,</w>",
        "166": "No",
        "167": "No,</w>",
        "168": "Not</w>",
        "169": "Now,</w>",
        "170": "Now</w>",
        "171": "O",
        "172": "O,</w>",
        "173": "O:</w>",
        "174": "O</w>",
        "175": "OF</w>",
        "176": "OL",
        "177": "OM",
        "178": "ON",
        "179": "ONT",
        "180": "OR",
        "181": "ORI",
        "182": "Of</w>",
        "183": "Or</w>",
        "184": "P",
        "185": "PER",
        "186": "PET",
        "187": "PETRUCHIO:</w>",
        "188": "Pro",
        "189": "Q",
        "190": "QUEEN",
        "191": "QUEEN</w>",
        "192": "R",
        "193": "RAN",
        "194": "RICH",
        "195": "RICHARD</w>",
        "196": "RO",
        "197": "ROMEO:</w>",
        "198": "Ri",
        "199": "Richar",
        "200": "Rome",
        "201": "S",
        "202": "S:</w>",
        "203": "S</w>",
        "204": "SICINIUS:</w>",
        "205": "ST",
        "206": "Sa",
        "207": "Se",
        "208": "Second</w>",
        "209": "Ser",
        "210": "Sha",
        "211": "So</w>",
        "212": "T",
        "213": "TH",
        "214": "TI",
        "215": "TIO:</w>",
        "216": "Th",
        "217": "Than</w>",
        "218": "That</w>",
        "219": "The",
        "220": "The</w>",
        "221": "Then</w>",
        "222": "This</w>",
        "223": "Thou</w>",
        "224": "Thy</w>",
        "225": "To</w>",
        "226": "U",
        "227": "UC",
        "228": "UCH",
        "229": "UM",
        "230": "US:</w>",
        "231": "Un",
        "232": "V",
        "233": "VINCENTIO:</w>",
        "234": "VOL",
        "235": "W",
        "236": "WARWICK:</w>",
        "237": "War",
        "238": "Warwi",
        "239": "We",
        "240": "We</w>",
        "241": "Wh",
        "242": "Wha",
        "243": "What,</w>",
        "244": "What</w>",
        "245": "When</w>",
        "246": "Where</w>",
        "247": "Which</w>",
        "248": "Who</w>",
        "249": "Why,</w>",
        "250": "Wi",
        "251": "With</w>",
        "252": "X",
        "253": "Y",
        "254": "Y:</w>",
        "255": "YORK:</w>",
        "256": "Yor",
        "257": "You</w>",
        "258": "Your</w>",
        "259": "Z",
        "260": "a",
        "261": "a</w>",
        "262": "ab",
        "263": "ac",
        "264": "ad",
        "265": "af",
        "266": "again",
        "267": "against</w>",
        "268": "al",
        "269": "al</w>",
        "270": "all",
        "271": "all</w>",
        "272": "am</w>",
        "273": "an",
        "274": "an</w>",
        "275": "ance</w>",
        "276": "and</w>",
        "277": "ang",
        "278": "ant</w>",
        "279": "any</w>",
        "280": "ap",
        "281": "ar",
        "282": "are</w>",
        "283": "art</w>",
        "284": "as",
        "285": "as</w>",
        "286": "at",
        "287": "at</w>",
        "288": "ate</w>",
        "289": "awa",
        "290": "ay,</w>",
        "291": "b",
        "292": "ba",
        "293": "ban",
        "294": "be",
        "295": "be</w>",
        "296": "bea",
        "297": "bear</w>",
        "298": "been</w>",
        "299": "before</w>",
        "300": "beg",
        "301": "being</w>",
        "302": "bes",
        "303": "bl",
        "304": "ble</w>",
        "305": "bloo",
        "306": "blood</w>",
        "307": "bo",
        "308": "both</w>",
        "309": "br",
        "310": "bra",
        "311": "brea",
        "312": "bro",
        "313": "brother",
        "314": "brother</w>",
        "315": "bu",
        "316": "bur",
        "317": "but</w>",
        "318": "by</w>",
        "319": "c",
        "320": "ca",
        "321": "call</w>",
        "322": "can",
        "323": "can</w>",
        "324": "cannot</w>",
        "325": "car",
        "326": "cause</w>",
        "327": "ce",
        "328": "ce,</w>",
        "329": "ce.</w>",
        "330": "ce</w>",
        "331": "ces",
        "332": "ch",
        "333": "ch,</w>",
        "334": "ch</w>",
        "335": "cha",
        "336": "char",
        "337": "chi",
        "338": "chil",
        "339": "ci",
        "340": "cious</w>",
        "341": "ck",
        "342": "ck,</w>",
        "343": "ck</w>",
        "344": "co",
        "345": "com",
        "346": "come,</w>",
        "347": "come</w>",
        "348": "comes</w>",
        "349": "comp",
        "350": "con",
        "351": "cond</w>",
        "352": "cont",
        "353": "cor",
        "354": "cou",
        "355": "coun",
        "356": "cour",
        "357": "crow",
        "358": "ct</w>",
        "359": "cu",
        "360": "cur",
        "361": "d",
        "362": "d!</w>",
        "363": "d's</w>",
        "364": "d,</w>",
        "365": "d.</w>",
        "366": "d:</w>",
        "367": "d;</w>",
        "368": "d</w>",
        "369": "d?</w>",
        "370": "da",
        "371": "dau",
        "372": "day</w>",
        "373": "de",
        "374": "de</w>",
        "375": "dea",
        "376": "dee",
        "377": "der",
        "378": "der</w>",
        "379": "des",
        "380": "di",
        "381": "did</w>",
        "382": "ding</w>",
        "383": "dis",
        "384": "dly</w>",
        "385": "do",
        "386": "do</w>",
        "387": "don",
        "388": "doth</w>",
        "389": "dou",
        "390": "dr",
        "391": "ds,</w>",
        "392": "ds</w>",
        "393": "dst</w>",
        "394": "du",
        "395": "dy</w>",
        "396": "e",
        "397": "e!</w>",
        "398": "e's</w>",
        "399": "e,</w>",
        "400": "e.</w>",
        "401": "e:</w>",
        "402": "e;</w>",
        "403": "e</w>",
        "404": "e?</w>",
        "405": "ea",
        "406": "ear",
        "407": "ear</w>",
        "408": "ears</w>",
        "409": "ed</w>",
        "410": "ee",
        "411": "eep",
        "412": "eep</w>",
        "413": "eet</w>",
        "414": "el",
        "415": "en",
        "416": "en,</w>",
        "417": "en</w>",
        "418": "ence",
        "419": "ence,</w>",
        "420": "ence</w>",
        "421": "end",
        "422": "end</w>",
        "423": "ene",
        "424": "ent",
        "425": "ent</w>",
        "426": "ep",
        "427": "er",
        "428": "er,</w>",
        "429": "er.</w>",
        "430": "er:</w>",
        "431": "er</w>",
        "432": "ere",
        "433": "ere</w>",
        "434": "ers</w>",
        "435": "es",
        "436": "es,</w>",
        "437": "es.</w>",
        "438": "es;</w>",
        "439": "es</w>",
        "440": "ese</w>",
        "441": "ess</w>",
        "442": "est</w>",
        "443": "et</w>",
        "444": "ever</w>",
        "445": "ex",
        "446": "ey",
        "447": "f",
        "448": "f</w>",
        "449": "fa",
        "450": "fair</w>",
        "451": "far",
        "452": "father",
        "453": "father</w>",
        "454": "fe",
        "455": "fear",
        "456": "fi",
        "457": "fir",
        "458": "fl",
        "459": "fo",
        "460": "foo",
        "461": "for",
        "462": "for</w>",
        "463": "fore</w>",
        "464": "fri",
        "465": "friend",
        "466": "from</w>",
        "467": "fu",
        "468": "ful</w>",
        "469": "g",
        "470": "ga",
        "471": "gain",
        "472": "gar",
        "473": "ge",
        "474": "ge,</w>",
        "475": "ge</w>",
        "476": "gent",
        "477": "gentle",
        "478": "gh",
        "479": "gh</w>",
        "480": "ght",
        "481": "ght,</w>",
        "482": "ght</w>",
        "483": "ghter",
        "484": "gi",
        "485": "give</w>",
        "486": "go",
        "487": "go</w>",
        "488": "goo",
        "489": "good</w>",
        "490": "gra",
        "491": "grea",
        "492": "great</w>",
        "493": "grie",
        "494": "gu",
        "495": "h",
        "496": "ha",
        "497": "had</w>",
        "498": "han",
        "499": "happ",
        "500": "har",
        "501": "hast</w>",
        "502": "hat</w>",
        "503": "hath</w>",
        "504": "have</w>",
        "505": "he",
        "506": "he</w>",
        "507": "hea",
        "508": "hear",
        "509": "hear</w>",
        "510": "heart</w>",
        "511": "hel",
        "512": "her",
        "513": "her</w>",
        "514": "here</w>",
        "515": "hi",
        "516": "him",
        "517": "him,</w>",
        "518": "him.</w>",
        "519": "him</w>",
        "520": "his</w>",
        "521": "ho",
        "522": "hon",
        "523": "honour",
        "524": "hop",
        "525": "hor",
        "526": "hou",
        "527": "how</w>",
        "528": "hus",
        "529": "i",
        "530": "id",
        "531": "id</w>",
        "532": "if</w>",
        "533": "ig",
        "534": "il",
        "535": "ill</w>",
        "536": "im",
        "537": "in",
        "538": "in,</w>",
        "539": "in</w>",
        "540": "ind</w>",
        "541": "ine</w>",
        "542": "ing",
        "543": "ing,</w>",
        "544": "ing.</w>",
        "545": "ing</w>",
        "546": "ings</w>",
        "547": "ir",
        "548": "ir,</w>",
        "549": "ir</w>",
        "550": "irst</w>",
        "551": "is",
        "552": "is</w>",
        "553": "ish",
        "554": "it",
        "555": "it,</w>",
        "556": "it.</w>",
        "557": "it</w>",
        "558": "iti",
        "559": "ity</w>",
        "560": "ive</w>",
        "561": "j",
        "562": "jo",
        "563": "ju",
        "564": "k",
        "565": "k,</w>",
        "566": "k.</w>",
        "567": "k</w>",
        "568": "ke,</w>",
        "569": "ke</w>",
        "570": "kes</w>",
        "571": "kin",
        "572": "king",
        "573": "king</w>",
        "574": "kn",
        "575": "know",
        "576": "know</w>",
        "577": "ks</w>",
        "578": "l",
        "579": "l,</w>",
        "580": "l</w>",
        "581": "la",
        "582": "lan",
        "583": "ld</w>",
        "584": "le",
        "585": "le,</w>",
        "586": "le.</w>",
        "587": "le</w>",
        "588": "lea",
        "589": "leave</w>",
        "590": "les</w>",
        "591": "less</w>",
        "592": "let</w>",
        "593": "li",
        "594": "lie",
        "595": "lif",
        "596": "life</w>",
        "597": "like</w>",
        "598": "litt",
        "599": "little</w>",
        "600": "ll",
        "601": "ll,</w>",
        "602": "ll</w>",
        "603": "llow",
        "604": "llow</w>",
        "605": "lo",
        "606": "loo",
        "607": "look</w>",
        "608": "lor",
        "609": "lord,</w>",
        "610": "lou",
        "611": "love</w>",
        "612": "lt</w>",
        "613": "lu",
        "614": "ly,</w>",
        "615": "ly</w>",
        "616": "m",
        "617": "m,</w>",
        "618": "m</w>",
        "619": "ma",
        "620": "made</w>",
        "621": "make</w>",
        "622": "man",
        "623": "man:</w>",
        "624": "man</w>",
        "625": "many</w>",
        "626": "mar",
        "627": "may</w>",
        "628": "mb",
        "629": "me",
        "630": "me,</w>",
        "631": "me.</w>",
        "632": "me;</w>",
        "633": "me</w>",
        "634": "mean",
        "635": "men",
        "636": "men</w>",
        "637": "ment",
        "638": "ment</w>",
        "639": "mer",
        "640": "mi",
        "641": "min",
        "642": "mine</w>",
        "643": "mo",
        "644": "mon",
        "645": "mor",
        "646": "more</w>",
        "647": "most</w>",
        "648": "mp",
        "649": "ms</w>",
        "650": "mu",
        "651": "much</w>",
        "652": "must</w>",
        "653": "my",
        "654": "my</w>",
        "655": "n",
        "656": "n,</w>",
        "657": "n</w>",
        "658": "na",
        "659": "name</w>",
        "660": "ne",
        "661": "nes",
        "662": "ness</w>",
        "663": "never</w>",
        "664": "new",
        "665": "ng",
        "666": "ni",
        "667": "no",
        "668": "no</w>",
        "669": "noble</w>",
        "670": "nor</w>",
        "671": "not,</w>",
        "672": "not</w>",
        "673": "now",
        "674": "now,</w>",
        "675": "now</w>",
        "676": "o",
        "677": "o'</w>",
        "678": "o,</w>",
        "679": "o</w>",
        "680": "of",
        "681": "of</w>",
        "682": "off",
        "683": "ol",
        "684": "old</w>",
        "685": "om",
        "686": "om</w>",
        "687": "ome",
        "688": "ome,</w>",
        "689": "ome</w>",
        "690": "on",
        "691": "on,</w>",
        "692": "on</w>",
        "693": "one,</w>",
        "694": "one</w>",
        "695": "ong",
        "696": "ong</w>",
        "697": "ongu",
        "698": "oo",
        "699": "ood</w>",
        "700": "op",
        "701": "or",
        "702": "or</w>",
        "703": "ose</w>",
        "704": "other</w>",
        "705": "ou",
        "706": "oul",
        "707": "oul</w>",
        "708": "ould</w>",
        "709": "oun",
        "710": "ound</w>",
        "711": "our",
        "712": "our</w>",
        "713": "ous</w>",
        "714": "out</w>",
        "715": "ow",
        "716": "ow,</w>",
        "717": "ow</w>",
        "718": "own",
        "719": "own</w>",
        "720": "p",
        "721": "p</w>",
        "722": "pa",
        "723": "par",
        "724": "pas",
        "725": "pe",
        "726": "pea",
        "727": "peop",
        "728": "per",
        "729": "pi",
        "730": "pla",
        "731": "plea",
        "732": "po",
        "733": "poor</w>",
        "734": "pow",
        "735": "pp",
        "736": "pr",
        "737": "pra",
        "738": "pre",
        "739": "pres",
        "740": "pri",
        "741": "prin",
        "742": "pro",
        "743": "pur",
        "744": "qu",
        "745": "que",
        "746": "qui",
        "747": "r",
        "748": "r</w>",
        "749": "ra",
        "750": "ran",
        "751": "re",
        "752": "re</w>",
        "753": "rea",
        "754": "red</w>",
        "755": "ree",
        "756": "ree</w>",
        "757": "rep",
        "758": "res",
        "759": "ri",
        "760": "rie",
        "761": "ro",
        "762": "rom</w>",
        "763": "rou",
        "764": "row",
        "765": "row</w>",
        "766": "roy",
        "767": "ru",
        "768": "ry,</w>",
        "769": "ry</w>",
        "770": "s",
        "771": "s!</w>",
        "772": "s,</w>",
        "773": "s.</w>",
        "774": "s:</w>",
        "775": "s;</w>",
        "776": "s</w>",
        "777": "s?</w>",
        "778": "sa",
        "779": "say</w>",
        "780": "sc",
        "781": "se",
        "782": "se,</w>",
        "783": "se.</w>",
        "784": "se:</w>",
        "785": "se</w>",
        "786": "sea",
        "787": "sed</w>",
        "788": "see",
        "789": "see</w>",
        "790": "sel",
        "791": "self",
        "792": "self</w>",
        "793": "sen",
        "794": "ser",
        "795": "set</w>",
        "796": "sh",
        "797": "sh</w>",
        "798": "sha",
        "799": "shall</w>",
        "800": "she</w>",
        "801": "shi",
        "802": "should</w>",
        "803": "si",
        "804": "sin",
        "805": "sir",
        "806": "sir,</w>",
        "807": "sla",
        "808": "sle",
        "809": "so",
        "810": "so,</w>",
        "811": "so</w>",
        "812": "some</w>",
        "813": "son",
        "814": "son</w>",
        "815": "sor",
        "816": "soul",
        "817": "sp",
        "818": "spea",
        "819": "speak</w>",
        "820": "spi",
        "821": "st",
        "822": "st,</w>",
        "823": "st:</w>",
        "824": "st</w>",
        "825": "sta",
        "826": "stan",
        "827": "stand</w>",
        "828": "ster",
        "829": "ster</w>",
        "830": "sti",
        "831": "str",
        "832": "su",
        "833": "sub",
        "834": "such</w>",
        "835": "sw",
        "836": "sweet</w>",
        "837": "swor",
        "838": "t",
        "839": "t!</w>",
        "840": "t's</w>",
        "841": "t,</w>",
        "842": "t.</w>",
        "843": "t:</w>",
        "844": "t;</w>",
        "845": "t</w>",
        "846": "t?</w>",
        "847": "ta",
        "848": "take</w>",
        "849": "tch",
        "850": "te",
        "851": "te</w>",
        "852": "ted</w>",
        "853": "tell</w>",
        "854": "ten",
        "855": "ter",
        "856": "ter</w>",
        "857": "th",
        "858": "th,</w>",
        "859": "th.</w>",
        "860": "th</w>",
        "861": "than",
        "862": "than</w>",
        "863": "that",
        "864": "that</w>",
        "865": "the",
        "866": "the</w>",
        "867": "thee,</w>",
        "868": "thee</w>",
        "869": "their</w>",
        "870": "them",
        "871": "them</w>",
        "872": "then</w>",
        "873": "ther",
        "874": "ther,</w>",
        "875": "ther</w>",
        "876": "there",
        "877": "there</w>",
        "878": "these</w>",
        "879": "they</w>",
        "880": "thi",
        "881": "thin",
        "882": "thing</w>",
        "883": "think</w>",
        "884": "this</w>",
        "885": "those</w>",
        "886": "thou",
        "887": "thou</w>",
        "888": "though</w>",
        "889": "thus</w>",
        "890": "thy</w>",
        "891": "ti",
        "892": "till</w>",
        "893": "time</w>",
        "894": "ting</w>",
        "895": "tion",
        "896": "tion</w>",
        "897": "to",
        "898": "to-",
        "899": "to</w>",
        "900": "tongu",
        "901": "too",
        "902": "too</w>",
        "903": "tor",
        "904": "tra",
        "905": "tri",
        "906": "tru",
        "907": "true</w>",
        "908": "ts,</w>",
        "909": "ts</w>",
        "910": "tt",
        "911": "tter",
        "912": "tter</w>",
        "913": "tu",
        "914": "tun",
        "915": "tur",
        "916": "tw",
        "917": "ty</w>",
        "918": "u",
        "919": "ul",
        "920": "un",
        "921": "unto</w>",
        "922": "up",
        "923": "up</w>",
        "924": "upon</w>",
        "925": "ur",
        "926": "urder",
        "927": "ure</w>",
        "928": "us",
        "929": "us,</w>",
        "930": "us</w>",
        "931": "use</w>",
        "932": "ut</w>",
        "933": "v",
        "934": "va",
        "935": "van",
        "936": "ve",
        "937": "ve,</w>",
        "938": "ve.</w>",
        "939": "ve</w>",
        "940": "ved</w>",
        "941": "ven",
        "942": "ven</w>",
        "943": "ver",
        "944": "ver</w>",
        "945": "very</w>",
        "946": "ves</w>",
        "947": "vi",
        "948": "ving</w>",
        "949": "vo",
        "950": "w",
        "951": "w</w>",
        "952": "wa",
        "953": "war",
        "954": "was</w>",
        "955": "way</w>",
        "956": "we",
        "957": "we</w>",
        "958": "well",
        "959": "well</w>",
        "960": "were</w>",
        "961": "wh",
        "962": "wha",
        "963": "what</w>",
        "964": "when</w>",
        "965": "where</w>",
        "966": "whi",
        "967": "which</w>",
        "968": "who</w>",
        "969": "wi",
        "970": "wif",
        "971": "will</w>",
        "972": "with",
        "973": "with</w>",
        "974": "wo",
        "975": "wom",
        "976": "wor",
        "977": "would</w>",
        "978": "wr",
        "979": "x",
        "980": "y",
        "981": "y!</w>",
        "982": "y's</w>",
        "983": "y,</w>",
        "984": "y.</w>",
        "985": "y:</w>",
        "986": "y;</w>",
        "987": "y</w>",
        "988": "y?</w>",
        "989": "yet</w>",
        "990": "you",
        "991": "you,</w>",
        "992": "you.</w>",
        "993": "you</w>",
        "994": "young",
        "995": "your",
        "996": "your</w>",
        "997": "ys</w>",
        "998": "z",
        "999": "zen"
    }
}